/**
  ******************************************************************************
  * @file    sine_data_params.c
  * @author  AST Embedded Analytics Research Platform
  * @date    2024-10-15T12:33:31+0200
  * @brief   AI Tool Automatic Code Generator for Embedded NN computing
  ******************************************************************************
  * Copyright (c) 2024 STMicroelectronics.
  * All rights reserved.
  *
  * This software is licensed under terms that can be found in the LICENSE file
  * in the root directory of this software component.
  * If no LICENSE file comes with this software, it is provided AS-IS.
  ******************************************************************************
  */

#include "sine_data_params.h"


/**  Activations Section  ****************************************************/
ai_handle g_sine_activations_table[1 + 2] = {
  AI_HANDLE_PTR(AI_MAGIC_MARKER),
  AI_HANDLE_PTR(NULL),
  AI_HANDLE_PTR(AI_MAGIC_MARKER),
};




/**  Weights Section  ********************************************************/
AI_ALIGNED(32)
const ai_u64 s_sine_weights_array_u64[161] = {
  0xbec930bbbdf97730U, 0x3f3214523e48f545U, 0xbd83e1e03e12cc64U, 0xbd5ed010be3889ecU,
  0x3ecfa6d3beec7f36U, 0xbf039eff3e8f2b42U, 0x3f2027bcbed788f0U, 0xbea9a330bebfa552U,
  0x0U, 0xbf38dff83ec1de99U, 0x3f5b8f323dba429dU, 0x0U,
  0x3f97a19d00000000U, 0xbe55ce16U, 0xbc41be4900000000U, 0x0U,
  0x3e42640a3b326d80U, 0xbe3ac71a3ed3a4f5U, 0xbe49e9ac3e4d9966U, 0xbe04b302bd7b7338U,
  0xbedbf5b7bdffae34U, 0x3eb1954dbeb2b3afU, 0x3e3b148e3ebca683U, 0xbe6df9e93e747cfaU,
  0x3e48f256bcd33190U, 0xbf1b825b3d0a014aU, 0x3ecd5acd3d9226e5U, 0xbdffaa24becc4369U,
  0x3e872ae5bec202f3U, 0x3eaea32fbebd6271U, 0x3e253b64be89472aU, 0x3ebae065be096feeU,
  0xbe3869603e11ff16U, 0xbf13ecd43eb67c5fU, 0x3f4e4103bec9a3bdU, 0xbc854f70be86f2a9U,
  0x3ee9c94f3e9aec53U, 0xbe607f9c3e60fae2U, 0xbf00c52a3e21c786U, 0xbe148baa3eaadad1U,
  0xbeb7c148be546051U, 0x3eeb2e583e3808d3U, 0xbecb495a3e4f9203U, 0xbe9cdc803ebf1ef5U,
  0xbe3d82593ea299cfU, 0xbe8aa5863e986f87U, 0xbe337afbbe639b0eU, 0xbd10fca8be711006U,
  0xbe923c883d91469cU, 0x3ebf744dbdf4bcd4U, 0xbedbe97bbd036c88U, 0x3d82e46c3ec1df9fU,
  0xbbfc8a803dd57844U, 0x3d2124b03e147b06U, 0xbeb328c23d09ce18U, 0xbec3631cbe08b0d6U,
  0x3de7d8ac3b5e9880U, 0x3ded02223ca41231U, 0x3ed8ab82bba6f347U, 0x3e8ac9a7bb01fc00U,
  0xbe3be85fbd975d80U, 0xbd789608bdc26244U, 0x3e8ff3a03e72d8daU, 0x3e171426bd33d868U,
  0xbe948a8ebec9c0acU, 0x3e82bbcfbcb53d50U, 0xbeda8a11beb3889aU, 0x3d4b13a03e95d9e9U,
  0xbebc14f43e83b6f9U, 0x3ecaeeeb3dc1891cU, 0xbd9b62fcbeab30fcU, 0x3ed61637beaf7450U,
  0x3af6d100bcb53e30U, 0x3f062a943df9bd66U, 0xbedca54abecbc8f7U, 0xbe7af099bea2d0b5U,
  0xbe6e90dfbe531b42U, 0x3c53d3803ebffeeeU, 0xbe4fd02c3c450020U, 0x3e05b1cebddf67f0U,
  0x3e50f13a3df34a0cU, 0x3e146978be29b2a0U, 0x3da367243df89344U, 0xbdca6948be969b7aU,
  0x3e8bd6323dabea7cU, 0xbecd1abebd47caa3U, 0x3ec3bbd83ece54c1U, 0x3ca0f050bedbfc5cU,
  0xbeb329653cd03080U, 0x3ecdfa40bcaf1ff1U, 0xbee79ae8be4633f3U, 0x3e43c4cebe9da110U,
  0xbf0ff805be5caf16U, 0x3bc694803ed0819aU, 0x3ebfc63dbe5f0c2bU, 0xbe8e61cabd7df628U,
  0x3e83f1c33ce72440U, 0xbeda15353e3f3027U, 0x3f6500fcbba7a360U, 0x3e8393373ebd9607U,
  0xbcc7fff53d3b4588U, 0x3e9179c5bd8b5d30U, 0xbf23e5efbe151478U, 0x3eda7e413ea72a11U,
  0x3ec4638dbe7b32b7U, 0xbde95bbc3e26293eU, 0xbc7d87e03d594990U, 0xbd1630b83eacefb1U,
  0xbebb5818bd8e56acU, 0x3e8461e3bdab6f90U, 0x3ecd22fb3d6d4148U, 0xbeb1c38d3c029b80U,
  0xbe65ab62beccb2caU, 0xbe07df973e5317afU, 0x3f5110633e7f2198U, 0xbe99a3383e031e4eU,
  0x3ef2da0dbe201f78U, 0x3ea9cb39be43ac86U, 0xbeca97023d527220U, 0x3eb2385fbdd8e85cU,
  0x3ea2fba73ebc1583U, 0xbe7ee400be773caeU, 0x3f4b4c13be7cc40bU, 0x3c5567e03ed08473U,
  0xbded6f6fbea727a4U, 0x3c805d503f0eb8c5U, 0xbf2f74913e09376eU, 0x3e83adff3db12becU,
  0xbdb7dc88bdbb040cU, 0x3e869b88be221bb5U, 0xbed0627a3e401aefU, 0xbedbe9143def4dfcU,
  0x3e7cd70fbe897c81U, 0x3e87fb6bbe16cd91U, 0x3e846964be8fbfc2U, 0xbdb7633cbed61c8fU,
  0x3e9369cd3e60686aU, 0xbea8e10fbe8723cbU, 0x3d2cc9b63e2d4030U, 0xbec19449be521eb4U,
  0x3eaa9e44bb9e2b00U, 0xbe37264a3e9ea20bU, 0x3d69bf54be308e08U, 0xbecb29dfbea13350U,
  0x3f00b3c500000000U, 0xbe82ce523ed0baa4U, 0x3e331b4f00000000U, 0xbe77722100000000U,
  0xbedca3fd3d8fcdccU, 0x3f18e388U, 0x3f0b760e3e618c91U, 0xbd920914be4755b0U,
  0x3f9a1cefbef185eaU, 0x3eb794123fa123a3U, 0xbe867aeb3de28900U, 0x3f616dec3ea96f18U,
  0x3f8a6b42be3d4a12U, 0x3e9fc0e8bf3cc3c1U, 0xbf6e51c1bf59afeeU, 0x3de3c3e13e0b8c98U,
  0xbe23f9bcU,
};


ai_handle g_sine_weights_table[1 + 2] = {
  AI_HANDLE_PTR(AI_MAGIC_MARKER),
  AI_HANDLE_PTR(s_sine_weights_array_u64),
  AI_HANDLE_PTR(AI_MAGIC_MARKER),
};

